-- Contents are randomly generated during RTL generation.
WIDTH=25;
DEPTH=128;

ADDRESS_RADIX=HEX;
DATA_RADIX=HEX;

CONTENT BEGIN

00 : 18997af;
01 : 1abaae5;
02 : 1532fd1;
03 : 0d1b661;
04 : 13c4c6a;
05 : 0aa090b;
06 : 03de5bd;
07 : 0d93028;
08 : 1cd08e2;
09 : 11c8bae;
0a : 15b11da;
0b : 163864d;
0c : 1f62683;
0d : 0148651;
0e : 13d8d07;
0f : 1f7d39e;
10 : 0761b50;
11 : 02a976e;
12 : 0498141;
13 : 0414c1f;
14 : 047141d;
15 : 10a357d;
16 : 084ae32;
17 : 11329f3;
18 : 04ecf49;
19 : 1dccdd1;
1a : 0524014;
1b : 0e93b7e;
1c : 0b05bb9;
1d : 0e76245;
1e : 14a3c5e;
1f : 10d940f;
20 : 06525d7;
21 : 10f5522;
22 : 02452bd;
23 : 02dd1f4;
24 : 1d115d5;
25 : 10422c8;
26 : 016b5f9;
27 : 1b94f07;
28 : 06bac9b;
29 : 0fe569a;
2a : 13c6e1e;
2b : 0e72ff1;
2c : 1932feb;
2d : 058ad1d;
2e : 1ce651e;
2f : 08b9bfb;
30 : 12f4fc6;
31 : 005d348;
32 : 07077a8;
33 : 0432ce4;
34 : 007f3f3;
35 : 15113c2;
36 : 0d2803e;
37 : 089b503;
38 : 116bcd4;
39 : 157a841;
3a : 1f1194f;
3b : 0545c92;
3c : 0a3140f;
3d : 16946e3;
3e : 17e5d7e;
3f : 1da7553;
40 : 1ba8ec0;
41 : 0f5b39d;
42 : 0b88af3;
43 : 1a35b7f;
44 : 043e4f2;
45 : 1b4ba94;
46 : 01a2341;
47 : 0fd984d;
48 : 1d4ef4f;
49 : 07fe97f;
4a : 1b08ea6;
4b : 04d9f2c;
4c : 0cf43f9;
4d : 0b7a28c;
4e : 0bc7744;
4f : 0dd63a5;
50 : 0204329;
51 : 19909be;
52 : 0dbe65c;
53 : 17b78f3;
54 : 14a43ee;
55 : 1b71c9e;
56 : 1a0de45;
57 : 0db426b;
58 : 16869d8;
59 : 020ab06;
5a : 0205d24;
5b : 0ed1edc;
5c : 1f121e4;
5d : 13b5a8e;
5e : 08ef1ef;
5f : 09aefbf;
60 : 18335d2;
61 : 0954ac9;
62 : 034679c;
63 : 1d6ae18;
64 : 19b8be5;
65 : 0db482a;
66 : 1933e33;
67 : 104e244;
68 : 0d11c95;
69 : 165bda8;
6a : 1bc53fe;
6b : 064797c;
6c : 1ac8aaa;
6d : 006e5f7;
6e : 15e24e9;
6f : 0510077;
70 : 0b6f55a;
71 : 02a3c74;
72 : 1aa92e6;
73 : 1e6b211;
74 : 0fb0262;
75 : 1254eb8;
76 : 14da74f;
77 : 09070ee;
78 : 1e7f80b;
79 : 1834528;
7a : 144aaf6;
7b : 1989602;
7c : 0372d11;
7d : 063ed33;
7e : 13c0070;
7f : 17f06ee;

END;
